#map = affine_map<(d0) -> (d0)>
#map1 = affine_map<(d0) -> (d0 + 8)>
#map2 = affine_map<(d0) -> (d0 + 26)>
#map3 = affine_map<(d0) -> (d0 + 13)>
module {
  memref.global "private" constant @__constant_104x104xi32_0 : memref<104x104xi32> = dense<"0x54030000540300005403000054030000540300003A1D00005403000054030000540300005403000054030000540300005403000054030000540300005403000054030000540300005403000054030000540300005403000054030000540300005403000054030000540300005403000054030000540300005403000054030000540300005403000054030000540300005403000054030000540300005403000054030000540300005403000054030000540300005403000054030000540300005403000054030000540300005403000054030000540300005403000054030000540300005403000054030000540300005403000054030000540300005403000054030000540300005403000054030000540300005403000054030000540300005403000054030000540300005403000054030000540300005403000054030000540300005403000054030000540300005403000054030000540300005403000054030000540300005403000054030000540300005403000054030000540300000E0400005403000054030000540300005403000054030000540300005403000070020000700200007002000070020000700200001A0300007002000070020000700200007002000070020000700200007002000070020000700200007002000070020000700200007002000070020000700200007002000070020000700200007002000070020000700200007002000070020000700200007002000070020000700200007002000070020000700200007002000070020000700200007002000070020000700200007002000070020000700200007002000070020000700200007002000070020000700200007002000070020000700200007002000070020000700200007002000070020000700200007002000070020000700200007002000070020000700200007002000070020000700200007002000070020000700200007002000070020000700200007002000070020000700200007002000070020000700200007002000070020000700200007002000070020000700200007002000070020000700200007002000070020000700200007002000070020000700200002A0300007002000070020000700200007002000070020000700200007002000070020000700200007002000070020000700200001A0300007002000070020000700200007002000070020000700200007002000070020000700200007002000070020000700200007002000070020000700200007002000070020000700200007002000070020000700200007002000070020000700200007002000070020000700200007002000070020000700200007002000070020000700200007002000070020000700200007002000070020000700200007002000070020000700200007002000070020000700200007002000070020000700200007002000070020000700200007002000070020000700200007002000070020000700200007002000070020000700200007002000070020000700200007002000070020000700200007002000070020000700200007002000070020000700200007002000070020000700200007002000070020000700200007002000070020000700200007002000070020000700200007002000070020000700200007002000070020000700200002A0300007002000070020000700200007002000070020000700200007002000070020000700200007002000070020000700200001A0300007002000070020000700200007002000070020000700200007002000070020000700200007002000070020000700200007002000070020000700200007002000070020000700200007002000070020000700200007002000070020000700200007002000070020000700200007002000070020000700200007002000070020000700200007002000070020000700200007002000070020000700200007002000070020000700200007002000070020000700200007002000070020000700200007002000070020000700200007002000070020000700200007002000070020000700200007002000070020000700200007002000070020000700200007002000070020000700200007002000070020000700200007002000070020000700200007002000070020000700200007002000070020000700200007002000070020000700200007002000070020000700200007002000070020000700200007002000070020000700200002A0300007002000070020000700200007002000070020000700200007002000070020000700200007002000070020000700200001A0300007002000070020000700200007002000070020000700200007002000070020000700200007002000070020000700200007002000070020000700200007002000070020000700200007002000070020000700200007002000070020000700200007002000070020000700200007002000070020000700200007002000070020000700200007002000070020000700200007002000070020000700200007002000070020000700200007002000070020000700200007002000070020000700200007002000070020000700200007002000070020000700200007002000070020000700200007002000070020000700200007002000070020000700200007002000070020000700200007002000070020000700200007002000070020000700200007002000070020000700200007002000070020000700200007002000070020000700200007002000070020000700200007002000070020000700200007002000070020000700200002A0300007002000070020000700200007002000070020000700200007002000070020000700200007002000070020000700200001A0300007002000070020000700200007002000070020000700200007002000070020000700200007002000070020000700200007002000070020000700200007002000070020000700200007002000070020000700200007002000070020000700200007002000070020000700200007002000070020000700200007002000070020000700200007002000070020000700200007002000070020000700200007002000070020000700200007002000070020000700200007002000070020000700200007002000070020000700200007002000070020000700200007002000070020000700200007002000070020000700200007002000070020000700200007002000070020000700200007002000070020000700200007002000070020000700200007002000070020000700200007002000070020000700200007002000070020000700200007002000070020000700200007002000070020000700200007002000070020000700200002A0300007002000070020000700200007002000070020000700200007002000070020000700200007002000070020000700200001A0300007002000070020000700200007002000070020000700200007002000070020000700200007002000070020000700200007002000070020000700200007002000070020000700200007002000070020000700200007002000070020000700200007002000070020000700200007002000070020000700200007002000070020000700200007002000070020000700200007002000070020000700200007002000070020000700200007002000070020000700200007002000070020000700200007002000070020000700200007002000070020000700200007002000070020000700200007002000070020000700200007002000070020000700200007002000070020000700200007002000070020000700200007002000070020000700200007002000070020000700200007002000070020000700200007002000070020000700200007002000070020000700200007002000070020000700200007002000070020000700200002A0300007002000070020000700200007002000070020000700200007002000070020000700200007002000070020000700200001A0300007002000070020000700200007002000070020000700200007002000070020000700200007002000070020000700200007002000070020000700200007002000070020000700200007002000070020000700200007002000070020000700200007002000070020000700200007002000070020000700200007002000070020000700200007002000070020000700200007002000070020000700200007002000070020000700200007002000070020000700200007002000070020000700200007002000070020000700200007002000070020000700200007002000070020000700200007002000070020000700200007002000070020000700200007002000070020000700200007002000070020000700200007002000070020000700200007002000070020000700200007002000070020000700200007002000070020000700200007002000070020000700200007002000070020000700200007002000070020000700200002A0300007002000070020000700200007002000070020000700200007002000070020000700200007002000070020000700200001A0300007002000070020000700200007002000070020000700200007002000070020000700200007002000070020000700200007002000070020000700200007002000070020000700200007002000070020000700200007002000070020000700200007002000070020000700200007002000070020000700200007002000070020000700200007002000070020000700200007002000070020000700200007002000070020000700200007002000070020000700200007002000070020000700200007002000070020000700200007002000070020000700200007002000070020000700200007002000070020000700200007002000070020000700200007002000070020000700200007002000070020000700200007002000070020000700200007002000070020000700200007002000070020000700200007002000070020000700200007002000070020000700200007002000070020000700200007002000070020000700200002A0300007002000070020000700200007002000070020000700200007002000070020000700200007002000070020000700200001A0300007002000070020000700200007002000070020000700200007002000070020000700200007002000070020000700200007002000070020000700200007002000070020000700200007002000070020000700200007002000070020000700200007002000070020000700200007002000070020000700200007002000070020000700200007002000070020000700200007002000070020000700200007002000070020000700200007002000070020000700200007002000070020000700200007002000070020000700200007002000070020000700200007002000070020000700200007002000070020000700200007002000070020000700200007002000070020000700200007002000070020000700200007002000070020000700200007002000070020000700200007002000070020000700200007002000070020000700200007002000070020000700200007002000070020000700200007002000070020000700200002A0300007002000070020000700200007002000070020000700200007002000070020000700200007002000070020000700200001A0300007002000070020000700200007002000070020000700200007002000070020000700200007002000070020000700200007002000070020000700200007002000070020000700200007002000070020000700200007002000070020000700200007002000070020000700200007002000070020000700200007002000070020000700200007002000070020000700200007002000070020000700200007002000070020000700200007002000070020000700200007002000070020000700200007002000070020000700200007002000070020000700200007002000070020000700200007002000070020000700200007002000070020000700200007002000070020000700200007002000070020000700200007002000070020000700200007002000070020000700200007002000070020000700200007002000070020000700200007002000070020000700200007002000070020000700200007002000070020000700200002A0300007002000070020000700200007002000070020000700200007002000070020000700200007002000070020000700200001A0300007002000070020000700200007002000070020000700200007002000070020000700200007002000070020000700200007002000070020000700200007002000070020000700200007002000070020000700200007002000070020000700200007002000070020000700200007002000070020000700200007002000070020000700200007002000070020000700200007002000070020000700200007002000070020000700200007002000070020000700200007002000070020000700200007002000070020000700200007002000070020000700200007002000070020000700200007002000070020000700200007002000070020000700200007002000070020000700200007002000070020000700200007002000070020000700200007002000070020000700200007002000070020000700200007002000070020000700200007002000070020000700200007002000070020000700200007002000070020000700200002A0300007002000070020000700200007002000070020000700200007002000070020000700200007002000070020000700200001A0300007002000070020000700200007002000070020000700200007002000070020000700200007002000070020000700200007002000070020000700200007002000070020000700200007002000070020000700200007002000070020000700200007002000070020000700200007002000070020000700200007002000070020000700200007002000070020000700200007002000070020000700200007002000070020000700200007002000070020000700200007002000070020000700200007002000070020000700200007002000070020000700200007002000070020000700200007002000070020000700200007002000070020000700200007002000070020000700200007002000070020000700200007002000070020000700200007002000070020000700200007002000070020000700200007002000070020000700200007002000070020000700200007002000070020000700200007002000070020000700200002A0300007002000070020000700200007002000070020000700200007002000070020000700200007002000070020000700200001A0300007002000070020000700200007002000070020000700200007002000070020000700200007002000070020000700200007002000070020000700200007002000070020000700200007002000070020000700200007002000070020000700200007002000070020000700200007002000070020000700200007002000070020000700200007002000070020000700200007002000070020000700200007002000070020000700200007002000070020000700200007002000070020000700200007002000070020000700200007002000070020000700200007002000070020000700200007002000070020000700200007002000070020000700200007002000070020000700200007002000070020000700200007002000070020000700200007002000070020000700200007002000070020000700200007002000070020000700200007002000070020000700200007002000070020000700200007002000070020000700200002A0300007002000070020000700200007002000070020000700200007002000070020000700200007002000070020000700200001A0300007002000070020000700200007002000070020000700200007002000070020000700200007002000070020000700200007002000070020000700200007002000070020000700200007002000070020000700200007002000070020000700200007002000070020000700200007002000070020000700200007002000070020000700200007002000070020000700200007002000070020000700200007002000070020000700200007002000070020000700200007002000070020000700200007002000070020000700200007002000070020000700200007002000070020000700200007002000070020000700200007002000070020000700200007002000070020000700200007002000070020000700200007002000070020000700200007002000070020000700200007002000070020000700200007002000070020000700200007002000070020000700200007002000070020000700200007002000070020000700200002A0300007002000070020000700200007002000070020000700200007002000070020000700200007002000070020000700200001A0300007002000070020000700200007002000070020000700200007002000070020000700200007002000070020000700200007002000070020000700200007002000070020000700200007002000070020000700200007002000070020000700200007002000070020000700200007002000070020000700200007002000070020000700200007002000070020000700200007002000070020000700200007002000070020000700200007002000070020000700200007002000070020000700200007002000070020000700200007002000070020000700200007002000070020000700200007002000070020000700200007002000070020000700200007002000070020000700200007002000070020000700200007002000070020000700200007002000070020000700200007002000070020000700200007002000070020000700200007002000070020000700200007002000070020000700200007002000070020000700200002A0300007002000070020000700200007002000070020000700200007002000070020000700200007002000070020000700200001A0300007002000070020000700200007002000070020000700200007002000070020000700200007002000070020000700200007002000070020000700200007002000070020000700200007002000070020000700200007002000070020000700200007002000070020000700200007002000070020000700200007002000070020000700200007002000070020000700200007002000070020000700200007002000070020000700200007002000070020000700200007002000070020000700200007002000070020000700200007002000070020000700200007002000070020000700200007002000070020000700200007002000070020000700200007002000070020000700200007002000070020000700200007002000070020000700200007002000070020000700200007002000070020000700200007002000070020000700200007002000070020000700200007002000070020000700200007002000070020000700200002A0300007002000070020000700200007002000070020000700200007002000070020000700200007002000070020000700200001A0300007002000070020000700200007002000070020000700200007002000070020000700200007002000070020000700200007002000070020000700200007002000070020000700200007002000070020000700200007002000070020000700200007002000070020000700200007002000070020000700200007002000070020000700200007002000070020000700200007002000070020000700200007002000070020000700200007002000070020000700200007002000070020000700200007002000070020000700200007002000070020000700200007002000070020000700200007002000070020000700200007002000070020000700200007002000070020000700200007002000070020000700200007002000070020000700200007002000070020000700200007002000070020000700200007002000070020000700200007002000070020000700200007002000070020000700200007002000070020000700200002A0300007002000070020000700200007002000070020000700200007002000070020000700200007002000070020000700200001A0300007002000070020000700200007002000070020000700200007002000070020000700200007002000070020000700200007002000070020000700200007002000070020000700200007002000070020000700200007002000070020000700200007002000070020000700200007002000070020000700200007002000070020000700200007002000070020000700200007002000070020000700200007002000070020000700200007002000070020000700200007002000070020000700200007002000070020000700200007002000070020000700200007002000070020000700200007002000070020000700200007002000070020000700200007002000070020000700200007002000070020000700200007002000070020000700200007002000070020000700200007002000070020000700200007002000070020000700200007002000070020000700200007002000070020000700200007002000070020000700200002A0300007002000070020000700200007002000070020000700200007002000070020000700200007002000070020000700200001A0300007002000070020000700200007002000070020000700200007002000070020000700200007002000070020000700200007002000070020000700200007002000070020000700200007002000070020000700200007002000070020000700200007002000070020000700200007002000070020000700200007002000070020000700200007002000070020000700200007002000070020000700200007002000070020000700200007002000070020000700200007002000070020000700200007002000070020000700200007002000070020000700200007002000070020000700200007002000070020000700200007002000070020000700200007002000070020000700200007002000070020000700200007002000070020000700200007002000070020000700200007002000070020000700200007002000070020000700200007002000070020000700200007002000070020000700200007002000070020000700200002A0300007002000070020000700200007002000070020000700200007002000070020000700200007002000070020000700200001A0300007002000070020000700200007002000070020000700200007002000070020000700200007002000070020000700200007002000070020000700200007002000070020000700200007002000070020000700200007002000070020000700200007002000070020000700200007002000070020000700200007002000070020000700200007002000070020000700200007002000070020000700200007002000070020000700200007002000070020000700200007002000070020000700200007002000070020000700200007002000070020000700200007002000070020000700200007002000070020000700200007002000070020000700200007002000070020000700200007002000070020000700200007002000070020000700200007002000070020000700200007002000070020000700200007002000070020000700200007002000070020000700200007002000070020000700200007002000070020000700200002A0300007002000070020000700200007002000070020000700200007002000070020000700200007002000070020000700200001A0300007002000070020000700200007002000070020000700200007002000070020000700200007002000070020000700200007002000070020000700200007002000070020000700200007002000070020000700200007002000070020000700200007002000070020000700200007002000070020000700200007002000070020000700200007002000070020000700200007002000070020000700200007002000070020000700200007002000070020000700200007002000070020000700200007002000070020000700200007002000070020000700200007002000070020000700200007002000070020000700200007002000070020000700200007002000070020000700200007002000070020000700200007002000070020000700200007002000070020000700200007002000070020000700200007002000070020000700200007002000070020000700200007002000070020000700200007002000070020000700200002A0300007002000070020000700200007002000070020000700200007002000070020000700200007002000070020000700200001A0300007002000070020000700200007002000070020000700200007002000070020000700200007002000070020000700200007002000070020000700200007002000070020000700200007002000070020000700200007002000070020000700200007002000070020000700200007002000070020000700200007002000070020000700200007002000070020000700200007002000070020000700200007002000070020000700200007002000070020000700200007002000070020000700200007002000070020000700200007002000070020000700200007002000070020000700200007002000070020000700200007002000070020000700200007002000070020000700200007002000070020000700200007002000070020000700200007002000070020000700200007002000070020000700200007002000070020000700200007002000070020000700200007002000070020000700200007002000070020000700200002A0300007002000070020000700200007002000070020000700200007002000070020000700200007002000070020000700200001A0300007002000070020000700200007002000070020000700200007002000070020000700200007002000070020000700200007002000070020000700200007002000070020000700200007002000070020000700200007002000070020000700200007002000070020000700200007002000070020000700200007002000070020000700200007002000070020000700200007002000070020000700200007002000070020000700200007002000070020000700200007002000070020000700200007002000070020000700200007002000070020000700200007002000070020000700200007002000070020000700200007002000070020000700200007002000070020000700200007002000070020000700200007002000070020000700200007002000070020000700200007002000070020000700200007002000070020000700200007002000070020000700200007002000070020000700200007002000070020000700200002A0300007002000070020000700200007002000070020000700200007002000070020000700200007002000070020000700200001A0300007002000070020000700200007002000070020000700200007002000070020000700200007002000070020000700200007002000070020000700200007002000070020000700200007002000070020000700200007002000070020000700200007002000070020000700200007002000070020000700200007002000070020000700200007002000070020000700200007002000070020000700200007002000070020000700200007002000070020000700200007002000070020000700200007002000070020000700200007002000070020000700200007002000070020000700200007002000070020000700200007002000070020000700200007002000070020000700200007002000070020000700200007002000070020000700200007002000070020000700200007002000070020000700200007002000070020000700200007002000070020000700200007002000070020000700200007002000070020000700200002A0300007002000070020000700200007002000070020000700200007002000070020000700200007002000070020000700200001A0300007002000070020000700200007002000070020000700200007002000070020000700200007002000070020000700200007002000070020000700200007002000070020000700200007002000070020000700200007002000070020000700200007002000070020000700200007002000070020000700200007002000070020000700200007002000070020000700200007002000070020000700200007002000070020000700200007002000070020000700200007002000070020000700200007002000070020000700200007002000070020000700200007002000070020000700200007002000070020000700200007002000070020000700200007002000070020000700200007002000070020000700200007002000070020000700200007002000070020000700200007002000070020000700200007002000070020000700200007002000070020000700200007002000070020000700200007002000070020000700200002A0300007002000070020000700200007002000070020000700200007002000070020000700200007002000070020000700200001A0300007002000070020000700200007002000070020000700200007002000070020000700200007002000070020000700200007002000070020000700200007002000070020000700200007002000070020000700200007002000070020000700200007002000070020000700200007002000070020000700200007002000070020000700200007002000070020000700200007002000070020000700200007002000070020000700200007002000070020000700200007002000070020000700200007002000070020000700200007002000070020000700200007002000070020000700200007002000070020000700200007002000070020000700200007002000070020000700200007002000070020000700200007002000070020000700200007002000070020000700200007002000070020000700200007002000070020000700200007002000070020000700200007002000070020000700200007002000070020000700200002A0300007002000070020000700200007002000070020000700200007002000070020000700200007002000070020000700200001A0300007002000070020000700200007002000070020000700200007002000070020000700200007002000070020000700200007002000070020000700200007002000070020000700200007002000070020000700200007002000070020000700200007002000070020000700200007002000070020000700200007002000070020000700200007002000070020000700200007002000070020000700200007002000070020000700200007002000070020000700200007002000070020000700200007002000070020000700200007002000070020000700200007002000070020000700200007002000070020000700200007002000070020000700200007002000070020000700200007002000070020000700200007002000070020000700200007002000070020000700200007002000070020000700200007002000070020000700200007002000070020000700200007002000070020000700200007002000070020000700200002A0300007002000070020000700200007002000070020000700200007002000070020000700200007002000070020000700200001A0300007002000070020000700200007002000070020000700200007002000070020000700200007002000070020000700200007002000070020000700200007002000070020000700200007002000070020000700200007002000070020000700200007002000070020000700200007002000070020000700200007002000070020000700200007002000070020000700200007002000070020000700200007002000070020000700200007002000070020000700200007002000070020000700200007002000070020000700200007002000070020000700200007002000070020000700200007002000070020000700200007002000070020000700200007002000070020000700200007002000070020000700200007002000070020000700200007002000070020000700200007002000070020000700200007002000070020000700200007002000070020000700200007002000070020000700200007002000070020000700200002A0300007002000070020000700200007002000070020000700200007002000070020000700200007002000070020000700200001A0300007002000070020000700200007002000070020000700200007002000070020000700200007002000070020000700200007002000070020000700200007002000070020000700200007002000070020000700200007002000070020000700200007002000070020000700200007002000070020000700200007002000070020000700200007002000070020000700200007002000070020000700200007002000070020000700200007002000070020000700200007002000070020000700200007002000070020000700200007002000070020000700200007002000070020000700200007002000070020000700200007002000070020000700200007002000070020000700200007002000070020000700200007002000070020000700200007002000070020000700200007002000070020000700200007002000070020000700200007002000070020000700200007002000070020000700200007002000070020000700200002A0300007002000070020000700200007002000070020000700200007002000070020000700200007002000070020000700200001A0300007002000070020000700200007002000070020000700200007002000070020000700200007002000070020000700200007002000070020000700200007002000070020000700200007002000070020000700200007002000070020000700200007002000070020000700200007002000070020000700200007002000070020000700200007002000070020000700200007002000070020000700200007002000070020000700200007002000070020000700200007002000070020000700200007002000070020000700200007002000070020000700200007002000070020000700200007002000070020000700200007002000070020000700200007002000070020000700200007002000070020000700200007002000070020000700200007002000070020000700200007002000070020000700200007002000070020000700200007002000070020000700200007002000070020000700200007002000070020000700200002A0300007002000070020000700200007002000070020000700200007002000070020000700200007002000070020000700200001A0300007002000070020000700200007002000070020000700200007002000070020000700200007002000070020000700200007002000070020000700200007002000070020000700200007002000070020000700200007002000070020000700200007002000070020000700200007002000070020000700200007002000070020000700200007002000070020000700200007002000070020000700200007002000070020000700200007002000070020000700200007002000070020000700200007002000070020000700200007002000070020000700200007002000070020000700200007002000070020000700200007002000070020000700200007002000070020000700200007002000070020000700200007002000070020000700200007002000070020000700200007002000070020000700200007002000070020000700200007002000070020000700200007002000070020000700200007002000070020000700200002A0300007002000070020000700200007002000070020000700200007002000070020000700200007002000070020000700200001A0300007002000070020000700200007002000070020000700200007002000070020000700200007002000070020000700200007002000070020000700200007002000070020000700200007002000070020000700200007002000070020000700200007002000070020000700200007002000070020000700200007002000070020000700200007002000070020000700200007002000070020000700200007002000070020000700200007002000070020000700200007002000070020000700200007002000070020000700200007002000070020000700200007002000070020000700200007002000070020000700200007002000070020000700200007002000070020000700200007002000070020000700200007002000070020000700200007002000070020000700200007002000070020000700200007002000070020000700200007002000070020000700200007002000070020000700200007002000070020000700200002A0300007002000070020000700200007002000070020000700200007002000070020000700200007002000070020000700200001A0300007002000070020000700200007002000070020000700200007002000070020000700200007002000070020000700200007002000070020000700200007002000070020000700200007002000070020000700200007002000070020000700200007002000070020000700200007002000070020000700200007002000070020000700200007002000070020000700200007002000070020000700200007002000070020000700200007002000070020000700200007002000070020000700200007002000070020000700200007002000070020000700200007002000070020000700200007002000070020000700200007002000070020000700200007002000070020000700200007002000070020000700200007002000070020000700200007002000070020000700200007002000070020000700200007002000070020000700200007002000070020000700200007002000070020000700200007002000070020000700200002A0300007002000070020000700200007002000070020000700200007002000070020000700200007002000070020000700200001A0300007002000070020000700200007002000070020000700200007002000070020000700200007002000070020000700200007002000070020000700200007002000070020000700200007002000070020000700200007002000070020000700200007002000070020000700200007002000070020000700200007002000070020000700200007002000070020000700200007002000070020000700200007002000070020000700200007002000070020000700200007002000070020000700200007002000070020000700200007002000070020000700200007002000070020000700200007002000070020000700200007002000070020000700200007002000070020000700200007002000070020000700200007002000070020000700200007002000070020000700200007002000070020000700200007002000070020000700200007002000070020000700200007002000070020000700200007002000070020000700200002A0300007002000070020000700200007002000070020000700200007002000070020000700200007002000070020000700200001A0300007002000070020000700200007002000070020000700200007002000070020000700200007002000070020000700200007002000070020000700200007002000070020000700200007002000070020000700200007002000070020000700200007002000070020000700200007002000070020000700200007002000070020000700200007002000070020000700200007002000070020000700200007002000070020000700200007002000070020000700200007002000070020000700200007002000070020000700200007002000070020000700200007002000070020000700200007002000070020000700200007002000070020000700200007002000070020000700200007002000070020000700200007002000070020000700200007002000070020000700200007002000070020000700200007002000070020000700200007002000070020000700200007002000070020000700200007002000070020000700200002A0300007002000070020000700200007002000070020000700200007002000070020000700200007002000070020000700200001A0300007002000070020000700200007002000070020000700200007002000070020000700200007002000070020000700200007002000070020000700200007002000070020000700200007002000070020000700200007002000070020000700200007002000070020000700200007002000070020000700200007002000070020000700200007002000070020000700200007002000070020000700200007002000070020000700200007002000070020000700200007002000070020000700200007002000070020000700200007002000070020000700200007002000070020000700200007002000070020000700200007002000070020000700200007002000070020000700200007002000070020000700200007002000070020000700200007002000070020000700200007002000070020000700200007002000070020000700200007002000070020000700200007002000070020000700200007002000070020000700200002A0300007002000070020000700200007002000070020000700200007002000070020000700200007002000070020000700200001A0300007002000070020000700200007002000070020000700200007002000070020000700200007002000070020000700200007002000070020000700200007002000070020000700200007002000070020000700200007002000070020000700200007002000070020000700200007002000070020000700200007002000070020000700200007002000070020000700200007002000070020000700200007002000070020000700200007002000070020000700200007002000070020000700200007002000070020000700200007002000070020000700200007002000070020000700200007002000070020000700200007002000070020000700200007002000070020000700200007002000070020000700200007002000070020000700200007002000070020000700200007002000070020000700200007002000070020000700200007002000070020000700200007002000070020000700200007002000070020000700200002A0300007002000070020000700200007002000070020000700200007002000070020000700200007002000070020000700200001A0300007002000070020000700200007002000070020000700200007002000070020000700200007002000070020000700200007002000070020000700200007002000070020000700200007002000070020000700200007002000070020000700200007002000070020000700200007002000070020000700200007002000070020000700200007002000070020000700200007002000070020000700200007002000070020000700200007002000070020000700200007002000070020000700200007002000070020000700200007002000070020000700200007002000070020000700200007002000070020000700200007002000070020000700200007002000070020000700200007002000070020000700200007002000070020000700200007002000070020000700200007002000070020000700200007002000070020000700200007002000070020000700200007002000070020000700200007002000070020000700200002A0300007002000070020000700200007002000070020000700200007002000070020000700200007002000070020000700200001A0300007002000070020000700200007002000070020000700200007002000070020000700200007002000070020000700200007002000070020000700200007002000070020000700200007002000070020000700200007002000070020000700200007002000070020000700200007002000070020000700200007002000070020000700200007002000070020000700200007002000070020000700200007002000070020000700200007002000070020000700200007002000070020000700200007002000070020000700200007002000070020000700200007002000070020000700200007002000070020000700200007002000070020000700200007002000070020000700200007002000070020000700200007002000070020000700200007002000070020000700200007002000070020000700200007002000070020000700200007002000070020000700200007002000070020000700200007002000070020000700200002A0300007002000070020000700200007002000070020000700200007002000070020000700200007002000070020000700200001A0300007002000070020000700200007002000070020000700200007002000070020000700200007002000070020000700200007002000070020000700200007002000070020000700200007002000070020000700200007002000070020000700200007002000070020000700200007002000070020000700200007002000070020000700200007002000070020000700200007002000070020000700200007002000070020000700200007002000070020000700200007002000070020000700200007002000070020000700200007002000070020000700200007002000070020000700200007002000070020000700200007002000070020000700200007002000070020000700200007002000070020000700200007002000070020000700200007002000070020000700200007002000070020000700200007002000070020000700200007002000070020000700200007002000070020000700200007002000070020000700200002A0300007002000070020000700200007002000070020000700200007002000070020000700200007002000070020000700200001A0300007002000070020000700200007002000070020000700200007002000070020000700200007002000070020000700200007002000070020000700200007002000070020000700200007002000070020000700200007002000070020000700200007002000070020000700200007002000070020000700200007002000070020000700200007002000070020000700200007002000070020000700200007002000070020000700200007002000070020000700200007002000070020000700200007002000070020000700200007002000070020000700200007002000070020000700200007002000070020000700200007002000070020000700200007002000070020000700200007002000070020000700200007002000070020000700200007002000070020000700200007002000070020000700200007002000070020000700200007002000070020000700200007002000070020000700200007002000070020000700200002A0300007002000070020000700200007002000070020000700200007002000070020000700200007002000070020000700200001A0300007002000070020000700200007002000070020000700200007002000070020000700200007002000070020000700200007002000070020000700200007002000070020000700200007002000070020000700200007002000070020000700200007002000070020000700200007002000070020000700200007002000070020000700200007002000070020000700200007002000070020000700200007002000070020000700200007002000070020000700200007002000070020000700200007002000070020000700200007002000070020000700200007002000070020000700200007002000070020000700200007002000070020000700200007002000070020000700200007002000070020000700200007002000070020000700200007002000070020000700200007002000070020000700200007002000070020000700200007002000070020000700200007002000070020000700200007002000070020000700200002A0300007002000070020000700200007002000070020000700200007002000070020000700200007002000070020000700200001A0300007002000070020000700200007002000070020000700200007002000070020000700200007002000070020000700200007002000070020000700200007002000070020000700200007002000070020000700200007002000070020000700200007002000070020000700200007002000070020000700200007002000070020000700200007002000070020000700200007002000070020000700200007002000070020000700200007002000070020000700200007002000070020000700200007002000070020000700200007002000070020000700200007002000070020000700200007002000070020000700200007002000070020000700200007002000070020000700200007002000070020000700200007002000070020000700200007002000070020000700200007002000070020000700200007002000070020000700200007002000070020000700200007002000070020000700200007002000070020000700200002A0300007002000070020000700200007002000070020000700200007002000070020000700200007002000070020000700200001A0300007002000070020000700200007002000070020000700200007002000070020000700200007002000070020000700200007002000070020000700200007002000070020000700200007002000070020000700200007002000070020000700200007002000070020000700200007002000070020000700200007002000070020000700200007002000070020000700200007002000070020000700200007002000070020000700200007002000070020000700200007002000070020000700200007002000070020000700200007002000070020000700200007002000070020000700200007002000070020000700200007002000070020000700200007002000070020000700200007002000070020000700200007002000070020000700200007002000070020000700200007002000070020000700200007002000070020000700200007002000070020000700200007002000070020000700200007002000070020000700200002A0300007002000070020000700200007002000070020000700200007002000070020000700200007002000070020000700200001A0300007002000070020000700200007002000070020000700200007002000070020000700200007002000070020000700200007002000070020000700200007002000070020000700200007002000070020000700200007002000070020000700200007002000070020000700200007002000070020000700200007002000070020000700200007002000070020000700200007002000070020000700200007002000070020000700200007002000070020000700200007002000070020000700200007002000070020000700200007002000070020000700200007002000070020000700200007002000070020000700200007002000070020000700200007002000070020000700200007002000070020000700200007002000070020000700200007002000070020000700200007002000070020000700200007002000070020000700200007002000070020000700200007002000070020000700200007002000070020000700200002A0300007002000070020000700200007002000070020000700200007002000070020000700200007002000070020000700200001A0300007002000070020000700200007002000070020000700200007002000070020000700200007002000070020000700200007002000070020000700200007002000070020000700200007002000070020000700200007002000070020000700200007002000070020000700200007002000070020000700200007002000070020000700200007002000070020000700200007002000070020000700200007002000070020000700200007002000070020000700200007002000070020000700200007002000070020000700200007002000070020000700200007002000070020000700200007002000070020000700200007002000070020000700200007002000070020000700200007002000070020000700200007002000070020000700200007002000070020000700200007002000070020000700200007002000070020000700200007002000070020000700200007002000070020000700200007002000070020000700200002A0300007002000070020000700200007002000070020000700200007002000070020000700200007002000070020000700200001A0300007002000070020000700200007002000070020000700200007002000070020000700200007002000070020000700200007002000070020000700200007002000070020000700200007002000070020000700200007002000070020000700200007002000070020000700200007002000070020000700200007002000070020000700200007002000070020000700200007002000070020000700200007002000070020000700200007002000070020000700200007002000070020000700200007002000070020000700200007002000070020000700200007002000070020000700200007002000070020000700200007002000070020000700200007002000070020000700200007002000070020000700200007002000070020000700200007002000070020000700200007002000070020000700200007002000070020000700200007002000070020000700200007002000070020000700200007002000070020000700200002A0300007002000070020000700200007002000070020000700200007002000070020000700200007002000070020000700200001A0300007002000070020000700200007002000070020000700200007002000070020000700200007002000070020000700200007002000070020000700200007002000070020000700200007002000070020000700200007002000070020000700200007002000070020000700200007002000070020000700200007002000070020000700200007002000070020000700200007002000070020000700200007002000070020000700200007002000070020000700200007002000070020000700200007002000070020000700200007002000070020000700200007002000070020000700200007002000070020000700200007002000070020000700200007002000070020000700200007002000070020000700200007002000070020000700200007002000070020000700200007002000070020000700200007002000070020000700200007002000070020000700200007002000070020000700200007002000070020000700200002A0300007002000070020000700200007002000070020000700200007002000070020000700200007002000070020000700200001A0300007002000070020000700200007002000070020000700200007002000070020000700200007002000070020000700200007002000070020000700200007002000070020000700200007002000070020000700200007002000070020000700200007002000070020000700200007002000070020000700200007002000070020000700200007002000070020000700200007002000070020000700200007002000070020000700200007002000070020000700200007002000070020000700200007002000070020000700200007002000070020000700200007002000070020000700200007002000070020000700200007002000070020000700200007002000070020000700200007002000070020000700200007002000070020000700200007002000070020000700200007002000070020000700200007002000070020000700200007002000070020000700200007002000070020000700200007002000070020000700200002A0300007002000070020000700200007002000070020000700200007002000070020000700200007002000070020000700200001A0300007002000070020000700200007002000070020000700200007002000070020000700200007002000070020000700200007002000070020000700200007002000070020000700200007002000070020000700200007002000070020000700200007002000070020000700200007002000070020000700200007002000070020000700200007002000070020000700200007002000070020000700200007002000070020000700200007002000070020000700200007002000070020000700200007002000070020000700200007002000070020000700200007002000070020000700200007002000070020000700200007002000070020000700200007002000070020000700200007002000070020000700200007002000070020000700200007002000070020000700200007002000070020000700200007002000070020000700200007002000070020000700200007002000070020000700200007002000070020000700200002A0300007002000070020000700200007002000070020000700200007002000070020000700200007002000070020000700200001A0300007002000070020000700200007002000070020000700200007002000070020000700200007002000070020000700200007002000070020000700200007002000070020000700200007002000070020000700200007002000070020000700200007002000070020000700200007002000070020000700200007002000070020000700200007002000070020000700200007002000070020000700200007002000070020000700200007002000070020000700200007002000070020000700200007002000070020000700200007002000070020000700200007002000070020000700200007002000070020000700200007002000070020000700200007002000070020000700200007002000070020000700200007002000070020000700200007002000070020000700200007002000070020000700200007002000070020000700200007002000070020000700200007002000070020000700200007002000070020000700200002A0300007002000070020000700200007002000070020000700200007002000070020000700200007002000070020000700200001A0300007002000070020000700200007002000070020000700200007002000070020000700200007002000070020000700200007002000070020000700200007002000070020000700200007002000070020000700200007002000070020000700200007002000070020000700200007002000070020000700200007002000070020000700200007002000070020000700200007002000070020000700200007002000070020000700200007002000070020000700200007002000070020000700200007002000070020000700200007002000070020000700200007002000070020000700200007002000070020000700200007002000070020000700200007002000070020000700200007002000070020000700200007002000070020000700200007002000070020000700200007002000070020000700200007002000070020000700200007002000070020000700200007002000070020000700200007002000070020000700200002A0300007002000070020000700200007002000070020000700200007002000070020000700200007002000070020000700200001A0300007002000070020000700200007002000070020000700200007002000070020000700200007002000070020000700200007002000070020000700200007002000070020000700200007002000070020000700200007002000070020000700200007002000070020000700200007002000070020000700200007002000070020000700200007002000070020000700200007002000070020000700200007002000070020000700200007002000070020000700200007002000070020000700200007002000070020000700200007002000070020000700200007002000070020000700200007002000070020000700200007002000070020000700200007002000070020000700200007002000070020000700200007002000070020000700200007002000070020000700200007002000070020000700200007002000070020000700200007002000070020000700200007002000070020000700200007002000070020000700200002A0300007002000070020000700200007002000070020000700200007002000070020000700200007002000070020000700200001A0300007002000070020000700200007002000070020000700200007002000070020000700200007002000070020000700200007002000070020000700200007002000070020000700200007002000070020000700200007002000070020000700200007002000070020000700200007002000070020000700200007002000070020000700200007002000070020000700200007002000070020000700200007002000070020000700200007002000070020000700200007002000070020000700200007002000070020000700200007002000070020000700200007002000070020000700200007002000070020000700200007002000070020000700200007002000070020000700200007002000070020000700200007002000070020000700200007002000070020000700200007002000070020000700200007002000070020000700200007002000070020000700200007002000070020000700200007002000070020000700200002A0300007002000070020000700200007002000070020000700200007002000070020000700200007002000070020000700200001A0300007002000070020000700200007002000070020000700200007002000070020000700200007002000070020000700200007002000070020000700200007002000070020000700200007002000070020000700200007002000070020000700200007002000070020000700200007002000070020000700200007002000070020000700200007002000070020000700200007002000070020000700200007002000070020000700200007002000070020000700200007002000070020000700200007002000070020000700200007002000070020000700200007002000070020000700200007002000070020000700200007002000070020000700200007002000070020000700200007002000070020000700200007002000070020000700200007002000070020000700200007002000070020000700200007002000070020000700200007002000070020000700200007002000070020000700200007002000070020000700200002A0300007002000070020000700200007002000070020000700200007002000070020000700200007002000070020000700200001A0300007002000070020000700200007002000070020000700200007002000070020000700200007002000070020000700200007002000070020000700200007002000070020000700200007002000070020000700200007002000070020000700200007002000070020000700200007002000070020000700200007002000070020000700200007002000070020000700200007002000070020000700200007002000070020000700200007002000070020000700200007002000070020000700200007002000070020000700200007002000070020000700200007002000070020000700200007002000070020000700200007002000070020000700200007002000070020000700200007002000070020000700200007002000070020000700200007002000070020000700200007002000070020000700200007002000070020000700200007002000070020000700200007002000070020000700200007002000070020000700200002A0300007002000070020000700200007002000070020000700200007002000070020000700200007002000070020000700200001A0300007002000070020000700200007002000070020000700200007002000070020000700200007002000070020000700200007002000070020000700200007002000070020000700200007002000070020000700200007002000070020000700200007002000070020000700200007002000070020000700200007002000070020000700200007002000070020000700200007002000070020000700200007002000070020000700200007002000070020000700200007002000070020000700200007002000070020000700200007002000070020000700200007002000070020000700200007002000070020000700200007002000070020000700200007002000070020000700200007002000070020000700200007002000070020000700200007002000070020000700200007002000070020000700200007002000070020000700200007002000070020000700200007002000070020000700200007002000070020000700200002A0300007002000070020000700200007002000070020000700200007002000070020000700200007002000070020000700200001A0300007002000070020000700200007002000070020000700200007002000070020000700200007002000070020000700200007002000070020000700200007002000070020000700200007002000070020000700200007002000070020000700200007002000070020000700200007002000070020000700200007002000070020000700200007002000070020000700200007002000070020000700200007002000070020000700200007002000070020000700200007002000070020000700200007002000070020000700200007002000070020000700200007002000070020000700200007002000070020000700200007002000070020000700200007002000070020000700200007002000070020000700200007002000070020000700200007002000070020000700200007002000070020000700200007002000070020000700200007002000070020000700200007002000070020000700200007002000070020000700200002A0300007002000070020000700200007002000070020000700200007002000070020000700200007002000070020000700200001A0300007002000070020000700200007002000070020000700200007002000070020000700200007002000070020000700200007002000070020000700200007002000070020000700200007002000070020000700200007002000070020000700200007002000070020000700200007002000070020000700200007002000070020000700200007002000070020000700200007002000070020000700200007002000070020000700200007002000070020000700200007002000070020000700200007002000070020000700200007002000070020000700200007002000070020000700200007002000070020000700200007002000070020000700200007002000070020000700200007002000070020000700200007002000070020000700200007002000070020000700200007002000070020000700200007002000070020000700200007002000070020000700200007002000070020000700200007002000070020000700200002A0300007002000070020000700200007002000070020000700200007002000070020000700200007002000070020000700200001A0300007002000070020000700200007002000070020000700200007002000070020000700200007002000070020000700200007002000070020000700200007002000070020000700200007002000070020000700200007002000070020000700200007002000070020000700200007002000070020000700200007002000070020000700200007002000070020000700200007002000070020000700200007002000070020000700200007002000070020000700200007002000070020000700200007002000070020000700200007002000070020000700200007002000070020000700200007002000070020000700200007002000070020000700200007002000070020000700200007002000070020000700200007002000070020000700200007002000070020000700200007002000070020000700200007002000070020000700200007002000070020000700200007002000070020000700200007002000070020000700200002A0300007002000070020000700200007002000070020000700200007002000070020000700200007002000070020000700200001A0300007002000070020000700200007002000070020000700200007002000070020000700200007002000070020000700200007002000070020000700200007002000070020000700200007002000070020000700200007002000070020000700200007002000070020000700200007002000070020000700200007002000070020000700200007002000070020000700200007002000070020000700200007002000070020000700200007002000070020000700200007002000070020000700200007002000070020000700200007002000070020000700200007002000070020000700200007002000070020000700200007002000070020000700200007002000070020000700200007002000070020000700200007002000070020000700200007002000070020000700200007002000070020000700200007002000070020000700200007002000070020000700200007002000070020000700200007002000070020000700200002A0300007002000070020000700200007002000070020000700200007002000070020000700200007002000070020000700200001A0300007002000070020000700200007002000070020000700200007002000070020000700200007002000070020000700200007002000070020000700200007002000070020000700200007002000070020000700200007002000070020000700200007002000070020000700200007002000070020000700200007002000070020000700200007002000070020000700200007002000070020000700200007002000070020000700200007002000070020000700200007002000070020000700200007002000070020000700200007002000070020000700200007002000070020000700200007002000070020000700200007002000070020000700200007002000070020000700200007002000070020000700200007002000070020000700200007002000070020000700200007002000070020000700200007002000070020000700200007002000070020000700200007002000070020000700200007002000070020000700200002A0300007002000070020000700200007002000070020000700200007002000070020000700200007002000070020000700200001A0300007002000070020000700200007002000070020000700200007002000070020000700200007002000070020000700200007002000070020000700200007002000070020000700200007002000070020000700200007002000070020000700200007002000070020000700200007002000070020000700200007002000070020000700200007002000070020000700200007002000070020000700200007002000070020000700200007002000070020000700200007002000070020000700200007002000070020000700200007002000070020000700200007002000070020000700200007002000070020000700200007002000070020000700200007002000070020000700200007002000070020000700200007002000070020000700200007002000070020000700200007002000070020000700200007002000070020000700200007002000070020000700200007002000070020000700200007002000070020000700200002A0300007002000070020000700200007002000070020000700200007002000070020000700200007002000070020000700200001A0300007002000070020000700200007002000070020000700200007002000070020000700200007002000070020000700200007002000070020000700200007002000070020000700200007002000070020000700200007002000070020000700200007002000070020000700200007002000070020000700200007002000070020000700200007002000070020000700200007002000070020000700200007002000070020000700200007002000070020000700200007002000070020000700200007002000070020000700200007002000070020000700200007002000070020000700200007002000070020000700200007002000070020000700200007002000070020000700200007002000070020000700200007002000070020000700200007002000070020000700200007002000070020000700200007002000070020000700200007002000070020000700200007002000070020000700200007002000070020000700200002A0300007002000070020000700200007002000070020000700200007002000070020000700200007002000070020000700200001A0300007002000070020000700200007002000070020000700200007002000070020000700200007002000070020000700200007002000070020000700200007002000070020000700200007002000070020000700200007002000070020000700200007002000070020000700200007002000070020000700200007002000070020000700200007002000070020000700200007002000070020000700200007002000070020000700200007002000070020000700200007002000070020000700200007002000070020000700200007002000070020000700200007002000070020000700200007002000070020000700200007002000070020000700200007002000070020000700200007002000070020000700200007002000070020000700200007002000070020000700200007002000070020000700200007002000070020000700200007002000070020000700200007002000070020000700200007002000070020000700200002A0300007002000070020000700200007002000070020000700200007002000070020000700200007002000070020000700200001A0300007002000070020000700200007002000070020000700200007002000070020000700200007002000070020000700200007002000070020000700200007002000070020000700200007002000070020000700200007002000070020000700200007002000070020000700200007002000070020000700200007002000070020000700200007002000070020000700200007002000070020000700200007002000070020000700200007002000070020000700200007002000070020000700200007002000070020000700200007002000070020000700200007002000070020000700200007002000070020000700200007002000070020000700200007002000070020000700200007002000070020000700200007002000070020000700200007002000070020000700200007002000070020000700200007002000070020000700200007002000070020000700200007002000070020000700200007002000070020000700200002A0300007002000070020000700200007002000070020000700200007002000070020000700200007002000070020000700200001A0300007002000070020000700200007002000070020000700200007002000070020000700200007002000070020000700200007002000070020000700200007002000070020000700200007002000070020000700200007002000070020000700200007002000070020000700200007002000070020000700200007002000070020000700200007002000070020000700200007002000070020000700200007002000070020000700200007002000070020000700200007002000070020000700200007002000070020000700200007002000070020000700200007002000070020000700200007002000070020000700200007002000070020000700200007002000070020000700200007002000070020000700200007002000070020000700200007002000070020000700200007002000070020000700200007002000070020000700200007002000070020000700200007002000070020000700200007002000070020000700200002A0300007002000070020000700200007002000070020000700200007002000070020000700200007002000070020000700200001A0300007002000070020000700200007002000070020000700200007002000070020000700200007002000070020000700200007002000070020000700200007002000070020000700200007002000070020000700200007002000070020000700200007002000070020000700200007002000070020000700200007002000070020000700200007002000070020000700200007002000070020000700200007002000070020000700200007002000070020000700200007002000070020000700200007002000070020000700200007002000070020000700200007002000070020000700200007002000070020000700200007002000070020000700200007002000070020000700200007002000070020000700200007002000070020000700200007002000070020000700200007002000070020000700200007002000070020000700200007002000070020000700200007002000070020000700200007002000070020000700200002A0300007002000070020000700200007002000070020000700200007002000070020000700200007002000070020000700200001A0300007002000070020000700200007002000070020000700200007002000070020000700200007002000070020000700200007002000070020000700200007002000070020000700200007002000070020000700200007002000070020000700200007002000070020000700200007002000070020000700200007002000070020000700200007002000070020000700200007002000070020000700200007002000070020000700200007002000070020000700200007002000070020000700200007002000070020000700200007002000070020000700200007002000070020000700200007002000070020000700200007002000070020000700200007002000070020000700200007002000070020000700200007002000070020000700200007002000070020000700200007002000070020000700200007002000070020000700200007002000070020000700200007002000070020000700200007002000070020000700200002A0300007002000070020000700200007002000070020000700200007002000070020000700200007002000070020000700200001A0300007002000070020000700200007002000070020000700200007002000070020000700200007002000070020000700200007002000070020000700200007002000070020000700200007002000070020000700200007002000070020000700200007002000070020000700200007002000070020000700200007002000070020000700200007002000070020000700200007002000070020000700200007002000070020000700200007002000070020000700200007002000070020000700200007002000070020000700200007002000070020000700200007002000070020000700200007002000070020000700200007002000070020000700200007002000070020000700200007002000070020000700200007002000070020000700200007002000070020000700200007002000070020000700200007002000070020000700200007002000070020000700200007002000070020000700200007002000070020000700200002A0300007002000070020000700200007002000070020000700200007002000070020000700200007002000070020000700200001A0300007002000070020000700200007002000070020000700200007002000070020000700200007002000070020000700200007002000070020000700200007002000070020000700200007002000070020000700200007002000070020000700200007002000070020000700200007002000070020000700200007002000070020000700200007002000070020000700200007002000070020000700200007002000070020000700200007002000070020000700200007002000070020000700200007002000070020000700200007002000070020000700200007002000070020000700200007002000070020000700200007002000070020000700200007002000070020000700200007002000070020000700200007002000070020000700200007002000070020000700200007002000070020000700200007002000070020000700200007002000070020000700200007002000070020000700200007002000070020000700200002A0300007002000070020000700200007002000070020000700200007002000070020000700200007002000070020000700200001A0300007002000070020000700200007002000070020000700200007002000070020000700200007002000070020000700200007002000070020000700200007002000070020000700200007002000070020000700200007002000070020000700200007002000070020000700200007002000070020000700200007002000070020000700200007002000070020000700200007002000070020000700200007002000070020000700200007002000070020000700200007002000070020000700200007002000070020000700200007002000070020000700200007002000070020000700200007002000070020000700200007002000070020000700200007002000070020000700200007002000070020000700200007002000070020000700200007002000070020000700200007002000070020000700200007002000070020000700200007002000070020000700200007002000070020000700200007002000070020000700200002A0300007002000070020000700200007002000070020000700200007002000070020000700200007002000070020000700200001A0300007002000070020000700200007002000070020000700200007002000070020000700200007002000070020000700200007002000070020000700200007002000070020000700200007002000070020000700200007002000070020000700200007002000070020000700200007002000070020000700200007002000070020000700200007002000070020000700200007002000070020000700200007002000070020000700200007002000070020000700200007002000070020000700200007002000070020000700200007002000070020000700200007002000070020000700200007002000070020000700200007002000070020000700200007002000070020000700200007002000070020000700200007002000070020000700200007002000070020000700200007002000070020000700200007002000070020000700200007002000070020000700200007002000070020000700200007002000070020000700200002A0300007002000070020000700200007002000070020000700200007002000070020000700200007002000070020000700200001A0300007002000070020000700200007002000070020000700200007002000070020000700200007002000070020000700200007002000070020000700200007002000070020000700200007002000070020000700200007002000070020000700200007002000070020000700200007002000070020000700200007002000070020000700200007002000070020000700200007002000070020000700200007002000070020000700200007002000070020000700200007002000070020000700200007002000070020000700200007002000070020000700200007002000070020000700200007002000070020000700200007002000070020000700200007002000070020000700200007002000070020000700200007002000070020000700200007002000070020000700200007002000070020000700200007002000070020000700200007002000070020000700200007002000070020000700200007002000070020000700200002A0300007002000070020000700200007002000070020000700200007002000070020000700200007002000070020000700200001A0300007002000070020000700200007002000070020000700200007002000070020000700200007002000070020000700200007002000070020000700200007002000070020000700200007002000070020000700200007002000070020000700200007002000070020000700200007002000070020000700200007002000070020000700200007002000070020000700200007002000070020000700200007002000070020000700200007002000070020000700200007002000070020000700200007002000070020000700200007002000070020000700200007002000070020000700200007002000070020000700200007002000070020000700200007002000070020000700200007002000070020000700200007002000070020000700200007002000070020000700200007002000070020000700200007002000070020000700200007002000070020000700200007002000070020000700200007002000070020000700200002A0300007002000070020000700200007002000070020000700200007002000070020000700200007002000070020000700200001A0300007002000070020000700200007002000070020000700200007002000070020000700200007002000070020000700200007002000070020000700200007002000070020000700200007002000070020000700200007002000070020000700200007002000070020000700200007002000070020000700200007002000070020000700200007002000070020000700200007002000070020000700200007002000070020000700200007002000070020000700200007002000070020000700200007002000070020000700200007002000070020000700200007002000070020000700200007002000070020000700200007002000070020000700200007002000070020000700200007002000070020000700200007002000070020000700200007002000070020000700200007002000070020000700200007002000070020000700200007002000070020000700200007002000070020000700200007002000070020000700200002A0300007002000070020000700200007002000070020000700200007002000070020000700200007002000070020000700200001A0300007002000070020000700200007002000070020000700200007002000070020000700200007002000070020000700200007002000070020000700200007002000070020000700200007002000070020000700200007002000070020000700200007002000070020000700200007002000070020000700200007002000070020000700200007002000070020000700200007002000070020000700200007002000070020000700200007002000070020000700200007002000070020000700200007002000070020000700200007002000070020000700200007002000070020000700200007002000070020000700200007002000070020000700200007002000070020000700200007002000070020000700200007002000070020000700200007002000070020000700200007002000070020000700200007002000070020000700200007002000070020000700200007002000070020000700200007002000070020000700200002A0300007002000070020000700200007002000070020000700200007002000070020000700200007002000070020000700200001A0300007002000070020000700200007002000070020000700200007002000070020000700200007002000070020000700200007002000070020000700200007002000070020000700200007002000070020000700200007002000070020000700200007002000070020000700200007002000070020000700200007002000070020000700200007002000070020000700200007002000070020000700200007002000070020000700200007002000070020000700200007002000070020000700200007002000070020000700200007002000070020000700200007002000070020000700200007002000070020000700200007002000070020000700200007002000070020000700200007002000070020000700200007002000070020000700200007002000070020000700200007002000070020000700200007002000070020000700200007002000070020000700200007002000070020000700200007002000070020000700200002A0300007002000070020000700200007002000070020000700200007002000070020000700200007002000070020000700200001A0300007002000070020000700200007002000070020000700200007002000070020000700200007002000070020000700200007002000070020000700200007002000070020000700200007002000070020000700200007002000070020000700200007002000070020000700200007002000070020000700200007002000070020000700200007002000070020000700200007002000070020000700200007002000070020000700200007002000070020000700200007002000070020000700200007002000070020000700200007002000070020000700200007002000070020000700200007002000070020000700200007002000070020000700200007002000070020000700200007002000070020000700200007002000070020000700200007002000070020000700200007002000070020000700200007002000070020000700200007002000070020000700200007002000070020000700200007002000070020000700200002A0300007002000070020000700200007002000070020000700200007002000070020000700200007002000070020000700200001A0300007002000070020000700200007002000070020000700200007002000070020000700200007002000070020000700200007002000070020000700200007002000070020000700200007002000070020000700200007002000070020000700200007002000070020000700200007002000070020000700200007002000070020000700200007002000070020000700200007002000070020000700200007002000070020000700200007002000070020000700200007002000070020000700200007002000070020000700200007002000070020000700200007002000070020000700200007002000070020000700200007002000070020000700200007002000070020000700200007002000070020000700200007002000070020000700200007002000070020000700200007002000070020000700200007002000070020000700200007002000070020000700200007002000070020000700200007002000070020000700200002A0300007002000070020000700200007002000070020000700200007002000070020000700200007002000070020000700200001A0300007002000070020000700200007002000070020000700200007002000070020000700200007002000070020000700200007002000070020000700200007002000070020000700200007002000070020000700200007002000070020000700200007002000070020000700200007002000070020000700200007002000070020000700200007002000070020000700200007002000070020000700200007002000070020000700200007002000070020000700200007002000070020000700200007002000070020000700200007002000070020000700200007002000070020000700200007002000070020000700200007002000070020000700200007002000070020000700200007002000070020000700200007002000070020000700200007002000070020000700200007002000070020000700200007002000070020000700200007002000070020000700200007002000070020000700200007002000070020000700200002A0300007002000070020000700200007002000070020000700200007002000070020000700200007002000070020000700200001A0300007002000070020000700200007002000070020000700200007002000070020000700200007002000070020000700200007002000070020000700200007002000070020000700200007002000070020000700200007002000070020000700200007002000070020000700200007002000070020000700200007002000070020000700200007002000070020000700200007002000070020000700200007002000070020000700200007002000070020000700200007002000070020000700200007002000070020000700200007002000070020000700200007002000070020000700200007002000070020000700200007002000070020000700200007002000070020000700200007002000070020000700200007002000070020000700200007002000070020000700200007002000070020000700200007002000070020000700200007002000070020000700200007002000070020000700200007002000070020000700200002A0300007002000070020000700200007002000070020000700200007002000070020000700200007002000070020000700200001A0300007002000070020000700200007002000070020000700200007002000070020000700200007002000070020000700200007002000070020000700200007002000070020000700200007002000070020000700200007002000070020000700200007002000070020000700200007002000070020000700200007002000070020000700200007002000070020000700200007002000070020000700200007002000070020000700200007002000070020000700200007002000070020000700200007002000070020000700200007002000070020000700200007002000070020000700200007002000070020000700200007002000070020000700200007002000070020000700200007002000070020000700200007002000070020000700200007002000070020000700200007002000070020000700200007002000070020000700200007002000070020000700200007002000070020000700200007002000070020000700200002A0300007002000070020000700200007002000070020000700200007002000070020000700200007002000070020000700200001A0300007002000070020000700200007002000070020000700200007002000070020000700200007002000070020000700200007002000070020000700200007002000070020000700200007002000070020000700200007002000070020000700200007002000070020000700200007002000070020000700200007002000070020000700200007002000070020000700200007002000070020000700200007002000070020000700200007002000070020000700200007002000070020000700200007002000070020000700200007002000070020000700200007002000070020000700200007002000070020000700200007002000070020000700200007002000070020000700200007002000070020000700200007002000070020000700200007002000070020000700200007002000070020000700200007002000070020000700200007002000070020000700200007002000070020000700200007002000070020000700200002A0300007002000070020000700200007002000070020000700200007002000070020000700200007002000070020000700200001A0300007002000070020000700200007002000070020000700200007002000070020000700200007002000070020000700200007002000070020000700200007002000070020000700200007002000070020000700200007002000070020000700200007002000070020000700200007002000070020000700200007002000070020000700200007002000070020000700200007002000070020000700200007002000070020000700200007002000070020000700200007002000070020000700200007002000070020000700200007002000070020000700200007002000070020000700200007002000070020000700200007002000070020000700200007002000070020000700200007002000070020000700200007002000070020000700200007002000070020000700200007002000070020000700200007002000070020000700200007002000070020000700200007002000070020000700200007002000070020000700200002A0300007002000070020000700200007002000070020000700200007002000070020000700200007002000070020000700200001A0300007002000070020000700200007002000070020000700200007002000070020000700200007002000070020000700200007002000070020000700200007002000070020000700200007002000070020000700200007002000070020000700200007002000070020000700200007002000070020000700200007002000070020000700200007002000070020000700200007002000070020000700200007002000070020000700200007002000070020000700200007002000070020000700200007002000070020000700200007002000070020000700200007002000070020000700200007002000070020000700200007002000070020000700200007002000070020000700200007002000070020000700200007002000070020000700200007002000070020000700200007002000070020000700200007002000070020000700200007002000070020000700200007002000070020000700200007002000070020000700200002A0300007002000070020000700200007002000070020000700200007002000070020000700200007002000070020000700200001A0300007002000070020000700200007002000070020000700200007002000070020000700200007002000070020000700200007002000070020000700200007002000070020000700200007002000070020000700200007002000070020000700200007002000070020000700200007002000070020000700200007002000070020000700200007002000070020000700200007002000070020000700200007002000070020000700200007002000070020000700200007002000070020000700200007002000070020000700200007002000070020000700200007002000070020000700200007002000070020000700200007002000070020000700200007002000070020000700200007002000070020000700200007002000070020000700200007002000070020000700200007002000070020000700200007002000070020000700200007002000070020000700200007002000070020000700200007002000070020000700200002A0300007002000070020000700200007002000070020000700200007002000070020000700200007002000070020000700200001A0300007002000070020000700200007002000070020000700200007002000070020000700200007002000070020000700200007002000070020000700200007002000070020000700200007002000070020000700200007002000070020000700200007002000070020000700200007002000070020000700200007002000070020000700200007002000070020000700200007002000070020000700200007002000070020000700200007002000070020000700200007002000070020000700200007002000070020000700200007002000070020000700200007002000070020000700200007002000070020000700200007002000070020000700200007002000070020000700200007002000070020000700200007002000070020000700200007002000070020000700200007002000070020000700200007002000070020000700200007002000070020000700200007002000070020000700200007002000070020000700200002A0300007002000070020000700200007002000070020000700200007002000070020000700200007002000070020000700200001A0300007002000070020000700200007002000070020000700200007002000070020000700200007002000070020000700200007002000070020000700200007002000070020000700200007002000070020000700200007002000070020000700200007002000070020000700200007002000070020000700200007002000070020000700200007002000070020000700200007002000070020000700200007002000070020000700200007002000070020000700200007002000070020000700200007002000070020000700200007002000070020000700200007002000070020000700200007002000070020000700200007002000070020000700200007002000070020000700200007002000070020000700200007002000070020000700200007002000070020000700200007002000070020000700200007002000070020000700200007002000070020000700200007002000070020000700200007002000070020000700200002A0300007002000070020000700200007002000070020000700200007002000070020000700200007002000070020000700200001A0300007002000070020000700200007002000070020000700200007002000070020000700200007002000070020000700200007002000070020000700200007002000070020000700200007002000070020000700200007002000070020000700200007002000070020000700200007002000070020000700200007002000070020000700200007002000070020000700200007002000070020000700200007002000070020000700200007002000070020000700200007002000070020000700200007002000070020000700200007002000070020000700200007002000070020000700200007002000070020000700200007002000070020000700200007002000070020000700200007002000070020000700200007002000070020000700200007002000070020000700200007002000070020000700200007002000070020000700200007002000070020000700200007002000070020000700200007002000070020000700200002A0300007002000070020000700200007002000070020000700200007002000070020000700200007002000070020000700200001A0300007002000070020000700200007002000070020000700200007002000070020000700200007002000070020000700200007002000070020000700200007002000070020000700200007002000070020000700200007002000070020000700200007002000070020000700200007002000070020000700200007002000070020000700200007002000070020000700200007002000070020000700200007002000070020000700200007002000070020000700200007002000070020000700200007002000070020000700200007002000070020000700200007002000070020000700200007002000070020000700200007002000070020000700200007002000070020000700200007002000070020000700200007002000070020000700200007002000070020000700200007002000070020000700200007002000070020000700200007002000070020000700200007002000070020000700200007002000070020000700200002A0300007002000070020000700200007002000070020000700200007002000070020000700200007002000070020000700200001A0300007002000070020000700200007002000070020000700200007002000070020000700200007002000070020000700200007002000070020000700200007002000070020000700200007002000070020000700200007002000070020000700200007002000070020000700200007002000070020000700200007002000070020000700200007002000070020000700200007002000070020000700200007002000070020000700200007002000070020000700200007002000070020000700200007002000070020000700200007002000070020000700200007002000070020000700200007002000070020000700200007002000070020000700200007002000070020000700200007002000070020000700200007002000070020000700200007002000070020000700200007002000070020000700200007002000070020000700200007002000070020000700200007002000070020000700200007002000070020000700200002A0300007002000070020000700200007002000070020000700200007002000070020000700200007002000070020000700200001A0300007002000070020000700200007002000070020000700200007002000070020000700200007002000070020000700200007002000070020000700200007002000070020000700200007002000070020000700200007002000070020000700200007002000070020000700200007002000070020000700200007002000070020000700200007002000070020000700200007002000070020000700200007002000070020000700200007002000070020000700200007002000070020000700200007002000070020000700200007002000070020000700200007002000070020000700200007002000070020000700200007002000070020000700200007002000070020000700200007002000070020000700200007002000070020000700200007002000070020000700200007002000070020000700200007002000070020000700200007002000070020000700200007002000070020000700200007002000070020000700200002A0300007002000070020000700200007002000070020000700200007002000070020000700200007002000070020000700200001A0300007002000070020000700200007002000070020000700200007002000070020000700200007002000070020000700200007002000070020000700200007002000070020000700200007002000070020000700200007002000070020000700200007002000070020000700200007002000070020000700200007002000070020000700200007002000070020000700200007002000070020000700200007002000070020000700200007002000070020000700200007002000070020000700200007002000070020000700200007002000070020000700200007002000070020000700200007002000070020000700200007002000070020000700200007002000070020000700200007002000070020000700200007002000070020000700200007002000070020000700200007002000070020000700200007002000070020000700200007002000070020000700200007002000070020000700200007002000070020000700200002A0300007002000070020000700200007002000070020000700200007002000070020000700200007002000070020000700200001A0300007002000070020000700200007002000070020000700200007002000070020000700200007002000070020000700200007002000070020000700200007002000070020000700200007002000070020000700200007002000070020000700200007002000070020000700200007002000070020000700200007002000070020000700200007002000070020000700200007002000070020000700200007002000070020000700200007002000070020000700200007002000070020000700200007002000070020000700200007002000070020000700200007002000070020000700200007002000070020000700200007002000070020000700200007002000070020000700200007002000070020000700200007002000070020000700200007002000070020000700200007002000070020000700200007002000070020000700200007002000070020000700200007002000070020000700200007002000070020000700200002A0300007002000070020000700200007002000070020000700200007002000070020000700200007002000070020000700200001A0300007002000070020000700200007002000070020000700200007002000070020000700200007002000070020000700200007002000070020000700200007002000070020000700200007002000070020000700200007002000070020000700200007002000070020000700200007002000070020000700200007002000070020000700200007002000070020000700200007002000070020000700200007002000070020000700200007002000070020000700200007002000070020000700200007002000070020000700200007002000070020000700200007002000070020000700200007002000070020000700200007002000070020000700200007002000070020000700200007002000070020000700200007002000070020000700200007002000070020000700200007002000070020000700200007002000070020000700200007002000070020000700200007002000070020000700200007002000070020000700200002A0300007002000070020000700200007002000070020000700200007002000070020000700200007002000070020000700200001A0300007002000070020000700200007002000070020000700200007002000070020000700200007002000070020000700200007002000070020000700200007002000070020000700200007002000070020000700200007002000070020000700200007002000070020000700200007002000070020000700200007002000070020000700200007002000070020000700200007002000070020000700200007002000070020000700200007002000070020000700200007002000070020000700200007002000070020000700200007002000070020000700200007002000070020000700200007002000070020000700200007002000070020000700200007002000070020000700200007002000070020000700200007002000070020000700200007002000070020000700200007002000070020000700200007002000070020000700200007002000070020000700200007002000070020000700200007002000070020000700200002A0300007002000070020000700200007002000070020000700200007002000070020000700200007002000070020000700200001A0300007002000070020000700200007002000070020000700200007002000070020000700200007002000070020000700200007002000070020000700200007002000070020000700200007002000070020000700200007002000070020000700200007002000070020000700200007002000070020000700200007002000070020000700200007002000070020000700200007002000070020000700200007002000070020000700200007002000070020000700200007002000070020000700200007002000070020000700200007002000070020000700200007002000070020000700200007002000070020000700200007002000070020000700200007002000070020000700200007002000070020000700200007002000070020000700200007002000070020000700200007002000070020000700200007002000070020000700200007002000070020000700200007002000070020000700200007002000070020000700200002A0300007002000070020000700200007002000070020000700200007002000070020000700200007002000070020000700200001A0300007002000070020000700200007002000070020000700200007002000070020000700200007002000070020000700200007002000070020000700200007002000070020000700200007002000070020000700200007002000070020000700200007002000070020000700200007002000070020000700200007002000070020000700200007002000070020000700200007002000070020000700200007002000070020000700200007002000070020000700200007002000070020000700200007002000070020000700200007002000070020000700200007002000070020000700200007002000070020000700200007002000070020000700200007002000070020000700200007002000070020000700200007002000070020000700200007002000070020000700200007002000070020000700200007002000070020000700200007002000070020000700200007002000070020000700200007002000070020000700200002A0300007002000070020000700200007002000070020000700200007002000070020000700200007002000070020000700200001A0300007002000070020000700200007002000070020000700200007002000070020000700200007002000070020000700200007002000070020000700200007002000070020000700200007002000070020000700200007002000070020000700200007002000070020000700200007002000070020000700200007002000070020000700200007002000070020000700200007002000070020000700200007002000070020000700200007002000070020000700200007002000070020000700200007002000070020000700200007002000070020000700200007002000070020000700200007002000070020000700200007002000070020000700200007002000070020000700200007002000070020000700200007002000070020000700200007002000070020000700200007002000070020000700200007002000070020000700200007002000070020000700200007002000070020000700200007002000070020000700200002A0300007002000070020000700200007002000070020000700200007002000070020000700200007002000070020000700200001A0300007002000070020000700200007002000070020000700200007002000070020000700200007002000070020000700200007002000070020000700200007002000070020000700200007002000070020000700200007002000070020000700200007002000070020000700200007002000070020000700200007002000070020000700200007002000070020000700200007002000070020000700200007002000070020000700200007002000070020000700200007002000070020000700200007002000070020000700200007002000070020000700200007002000070020000700200007002000070020000700200007002000070020000700200007002000070020000700200007002000070020000700200007002000070020000700200007002000070020000700200007002000070020000700200007002000070020000700200007002000070020000700200007002000070020000700200007002000070020000700200002A0300007002000070020000700200007002000070020000700200007002000070020000700200007002000070020000700200001A0300007002000070020000700200007002000070020000700200007002000070020000700200007002000070020000700200007002000070020000700200007002000070020000700200007002000070020000700200007002000070020000700200007002000070020000700200007002000070020000700200007002000070020000700200007002000070020000700200007002000070020000700200007002000070020000700200007002000070020000700200007002000070020000700200007002000070020000700200007002000070020000700200007002000070020000700200007002000070020000700200007002000070020000700200007002000070020000700200007002000070020000700200007002000070020000700200007002000070020000700200007002000070020000700200007002000070020000700200007002000070020000700200007002000070020000700200007002000070020000700200002A0300007002000070020000700200007002000070020000700200007002000070020000700200007002000070020000700200001A0300007002000070020000700200007002000070020000700200007002000070020000700200007002000070020000700200007002000070020000700200007002000070020000700200007002000070020000700200007002000070020000700200007002000070020000700200007002000070020000700200007002000070020000700200007002000070020000700200007002000070020000700200007002000070020000700200007002000070020000700200007002000070020000700200007002000070020000700200007002000070020000700200007002000070020000700200007002000070020000700200007002000070020000700200007002000070020000700200007002000070020000700200007002000070020000700200007002000070020000700200007002000070020000700200007002000070020000700200007002000070020000700200007002000070020000700200007002000070020000700200002A03000070020000700200007002000070020000700200007002000070020000"> {alignment = 64 : i64}
  memref.global "private" constant @__constant_104x104xi32 : memref<104x104xi32> = dense<0> {alignment = 64 : i64}
